1111010111
11111111
11111111
11111111
11111111
11111111
1111010111
11111111
000011000011111001100
1110101111
11001001100010100111010
110110000011101101
0010111010101101
11111111
0101101101110010
11011000111010111
1111111010
11111111
1101011111
1101011111
11111111
11111111
11111111
111111100111
1111010111
111011101111
01110110111011001111
1110101111
1111110101
11111111
1110101111
1111110101
1111110000001111
11001110111100000111
0111111100011001101001110
01101000000001110111100110110
00011100001000001011111
11111111
011111101100010100011
0010101111100011101111
11110010101001110
11111111
0101111111
1111110101
0101110110101000111
11111111
01101111111
1100011111010
11111111
11111111
11111111
11111111
11111111
11111111
11111111
11111111
11111111
00101100011111
01110101010001111
001011011101111
01101000011001100111
11111111
0111011100110111110001010
110110010111010
11111111
1111010111
11111111
11111101101
1111010111
11111111
1111001011010
111111001111